{
  "token2idx": {
    "<PAD>": 0,
    "<SOS>": 1,
    "<EOS>": 2,
    "<UNK>": 3,
    "ren": 4,
    "lei": 5,
    "hong": 6,
    "xi": 7,
    "bao": 8,
    "ke": 9,
    "yi": 10,
    "tong": 11,
    "guo": 12,
    "li": 13,
    "xin": 14,
    "cong": 15,
    "xue": 16,
    "jiang": 17,
    "zhong": 18,
    "fen": 19,
    "chu": 20,
    "lai": 21,
    "liang": 22,
    "shi": 23,
    "an": 24,
    "quan": 25,
    "jia": 26,
    "de": 27,
    "yao": 28,
    "ji": 29,
    "jie": 30,
    "jue": 31,
    "hao": 32,
    "kou": 33,
    "chi": 34,
    "fan": 35,
    "wen": 36,
    "ti": 37,
    "wo": 38,
    "men": 39,
    "dang": 40,
    "zhi": 41,
    "zheng": 42,
    "tou": 43,
    "deng": 44,
    "da": 45,
    "shao": 46,
    "zi": 47,
    "gong": 48,
    "hu": 49,
    "hai": 50,
    "qin": 51,
    "er": 52,
    "jin": 53,
    "nian": 54,
    "yue": 55,
    "ping": 56,
    "zong": 57,
    "shu": 58,
    "zai": 59,
    "min": 60,
    "ri": 61,
    "chuang": 62,
    "kan": 63,
    "zhou": 64,
    "he": 65,
    "qiang": 66,
    "diao": 67,
    "gou": 68,
    "jian": 69,
    "mei": 70,
    "chuan": 71,
    "bo": 72,
    "ge": 73,
    "ju": 74,
    "zhe": 75,
    "ye": 76,
    "cheng": 77,
    "wei": 78,
    "ci": 79,
    "lun": 80,
    "tan": 81,
    "zhu": 82,
    "ba": 83,
    "man": 84,
    "zu": 85,
    "dui": 86,
    "sheng": 87,
    "huo": 88,
    "qi": 89,
    "dai": 90,
    "zuo": 91,
    "fa": 92,
    "zhan": 93,
    "dian": 94,
    "luo": 95,
    "jiao": 96,
    "bu": 97,
    "shen": 98,
    "hua": 99,
    "gan": 100,
    "chang": 101,
    "le": 102,
    "yan": 103,
    "pan": 104,
    "zhen": 105,
    "fu": 106,
    "xia": 107,
    "di": 108,
    "gao": 109,
    "miao": 110,
    "peng": 111,
    "shan": 112,
    "suan": 113,
    "you": 114,
    "yang": 115,
    "jiong": 116,
    "xie": 117,
    "zhang": 118,
    "wang": 119,
    "bian": 120,
    "bing": 121,
    "xu": 122,
    "dao": 123,
    "san": 124,
    "wan": 125,
    "bei": 126,
    "neng": 127,
    "xiang": 128,
    "duo": 129,
    "yuan": 130,
    "tai": 131,
    "dong": 132,
    "xiao": 133,
    "she": 134,
    "hou": 135,
    "yu": 136,
    "shang": 137,
    "liu": 138,
    "fang": 139,
    "mian": 140,
    "ming": 141,
    "que": 142,
    "qiu": 143,
    "qing": 144,
    "huai": 145,
    "si": 146,
    "guang": 147,
    "lv": 148,
    "ze": 149,
    "xian": 150,
    "kong": 151,
    "ran": 152,
    "qu": 153,
    "tiao": 154,
    "ben": 155,
    "la": 156,
    "ou": 157,
    "meng": 158,
    "jing": 159,
    "shou": 160,
    "hui": 161,
    "zeng": 162,
    "gen": 163,
    "wu": 164,
    "mai": 165,
    "guan": 166,
    "che": 167,
    "zhua": 168,
    "qie": 169,
    "feng": 170,
    "xun": 171,
    "nan": 172,
    "du": 173,
    "kuo": 174,
    "sun": 175,
    "huang": 176,
    "xing": 177,
    "lie": 178,
    "jun": 179,
    "han": 180,
    "tao": 181,
    "bai": 182,
    "tu": 183,
    "ding": 184,
    "yin": 185,
    "su": 186,
    "wai": 187,
    "gui": 188,
    "mo": 189,
    "reng": 190,
    "fei": 191,
    "lve": 192,
    "ling": 193,
    "biao": 194,
    "ru": 195,
    "ni": 196,
    "qian": 197,
    "gu": 198,
    "suo": 199,
    "jiu": 200,
    "xiu": 201,
    "qiong": 202,
    "shui": 203,
    "ya": 204,
    "zha": 205,
    "tie": 206,
    "mu": 207,
    "zun": 208,
    "cun": 209,
    "te": 210,
    "se": 211,
    "nong": 212,
    "rong": 213,
    "rang": 214,
    "chou": 215,
    "bi": 216,
    "geng": 217,
    "yong": 218,
    "lao": 219,
    "dou": 220,
    "po": 221,
    "lang": 222,
    "hang": 223,
    "dan": 224,
    "sui": 225,
    "shuo": 226,
    "can": 227,
    "tuan": 228,
    "zui": 229,
    "kang": 230,
    "ce": 231,
    "kai": 232,
    "zao": 233,
    "chao": 234,
    "kuai": 235,
    "zhuan": 236,
    "ying": 237,
    "gai": 238,
    "huan": 239,
    "tui": 240,
    "niu": 241,
    "wa": 242,
    "ta": 243,
    "qun": 244,
    "lian": 245,
    "chong": 246,
    "song": 247,
    "lu": 248,
    "chen": 249,
    "na": 250,
    "kui": 251,
    "lan": 252,
    "bie": 253,
    "cha": 254,
    "ban": 255,
    "gang": 256,
    "pai": 257,
    "xuan": 258,
    "mi": 259,
    "ai": 260,
    "tuo": 261,
    "nei": 262,
    "qia": 263,
    "nao": 264,
    "chan": 265,
    "cu": 266,
    "tian": 267,
    "xiong": 268,
    "duan": 269,
    "cui": 270,
    "cai": 271,
    "zhun": 272,
    "cao": 273,
    "pi": 274,
    "cuo": 275,
    "zuan": 276,
    "mao": 277,
    "dun": 278,
    "rou": 279,
    "piao": 280,
    "tang": 281,
    "pin": 282,
    "kun": 283,
    "pu": 284,
    "shun": 285,
    "nv": 286,
    "ceng": 287,
    "zang": 288,
    "gua": 289,
    "pang": 290,
    "lin": 291,
    "pao": 292,
    "pen": 293,
    "ga": 294,
    "chai": 295,
    "zhao": 296,
    "yun": 297,
    "pei": 298,
    "liao": 299,
    "shuai": 300,
    "zou": 301,
    "chun": 302,
    "gei": 303,
    "hen": 304,
    "luan": 305,
    "nu": 306,
    "rao": 307,
    "ma": 308,
    "sha": 309,
    "me": 310,
    "sang": 311,
    "weng": 312,
    "kao": 313,
    "ting": 314,
    "bang": 315,
    "keng": 316,
    "nuo": 317,
    "ning": 318,
    "lia": 319,
    "fou": 320,
    "za": 321,
    "mie": 322,
    "zhuang": 323,
    "cang": 324,
    "kuang": 325,
    "juan": 326,
    "kuan": 327,
    "mou": 328,
    "heng": 329,
    "e": 330,
    "nuan": 331,
    "zhui": 332,
    "zei": 333,
    "pa": 334,
    "en": 335,
    "ao": 336,
    "pian": 337,
    "mang": 338,
    "sai": 339,
    "re": 340,
    "bin": 341,
    "long": 342,
    "ang": 343,
    "tun": 344,
    "ka": 345,
    "qiao": 346,
    "lou": 347,
    "shua": 348,
    "hun": 349,
    "zen": 350,
    "nie": 351,
    "shuang": 352,
    "kua": 353,
    "teng": 354,
    "zan": 355,
    "a": 356,
    "zhai": 357,
    "sen": 358,
    "ku": 359,
    "zhuo": 360,
    "ruo": 361,
    "hei": 362,
    "shai": 363,
    "sao": 364,
    "die": 365,
    "ruan": 366,
    "gun": 367,
    "ha": 368,
    "nai": 369,
    "beng": 370,
    "leng": 371,
    "sa": 372,
    "ca": 373,
    "niao": 374,
    "chui": 375,
    "guai": 376,
    "pou": 377,
    "niang": 378,
    "cou": 379,
    "rui": 380,
    "sou": 381,
    "run": 382,
    "chuo": 383,
    "nve": 384,
    "ken": 385,
    "seng": 386,
    "nin": 387,
    "cuan": 388,
    "miu": 389,
    "chuai": 390,
    "nang": 391,
    "diu": 392,
    "ne": 393,
    "shuan": 394,
    "nen": 395,
    "pie": 396,
    "cen": 397,
    "zhuai": 398,
    "yo": 399,
    "n": 400,
    "o": 401,
    "ei": 402
  },
  "idx2token": {
    "0": "<PAD>",
    "1": "<SOS>",
    "2": "<EOS>",
    "3": "<UNK>",
    "4": "ren",
    "5": "lei",
    "6": "hong",
    "7": "xi",
    "8": "bao",
    "9": "ke",
    "10": "yi",
    "11": "tong",
    "12": "guo",
    "13": "li",
    "14": "xin",
    "15": "cong",
    "16": "xue",
    "17": "jiang",
    "18": "zhong",
    "19": "fen",
    "20": "chu",
    "21": "lai",
    "22": "liang",
    "23": "shi",
    "24": "an",
    "25": "quan",
    "26": "jia",
    "27": "de",
    "28": "yao",
    "29": "ji",
    "30": "jie",
    "31": "jue",
    "32": "hao",
    "33": "kou",
    "34": "chi",
    "35": "fan",
    "36": "wen",
    "37": "ti",
    "38": "wo",
    "39": "men",
    "40": "dang",
    "41": "zhi",
    "42": "zheng",
    "43": "tou",
    "44": "deng",
    "45": "da",
    "46": "shao",
    "47": "zi",
    "48": "gong",
    "49": "hu",
    "50": "hai",
    "51": "qin",
    "52": "er",
    "53": "jin",
    "54": "nian",
    "55": "yue",
    "56": "ping",
    "57": "zong",
    "58": "shu",
    "59": "zai",
    "60": "min",
    "61": "ri",
    "62": "chuang",
    "63": "kan",
    "64": "zhou",
    "65": "he",
    "66": "qiang",
    "67": "diao",
    "68": "gou",
    "69": "jian",
    "70": "mei",
    "71": "chuan",
    "72": "bo",
    "73": "ge",
    "74": "ju",
    "75": "zhe",
    "76": "ye",
    "77": "cheng",
    "78": "wei",
    "79": "ci",
    "80": "lun",
    "81": "tan",
    "82": "zhu",
    "83": "ba",
    "84": "man",
    "85": "zu",
    "86": "dui",
    "87": "sheng",
    "88": "huo",
    "89": "qi",
    "90": "dai",
    "91": "zuo",
    "92": "fa",
    "93": "zhan",
    "94": "dian",
    "95": "luo",
    "96": "jiao",
    "97": "bu",
    "98": "shen",
    "99": "hua",
    "100": "gan",
    "101": "chang",
    "102": "le",
    "103": "yan",
    "104": "pan",
    "105": "zhen",
    "106": "fu",
    "107": "xia",
    "108": "di",
    "109": "gao",
    "110": "miao",
    "111": "peng",
    "112": "shan",
    "113": "suan",
    "114": "you",
    "115": "yang",
    "116": "jiong",
    "117": "xie",
    "118": "zhang",
    "119": "wang",
    "120": "bian",
    "121": "bing",
    "122": "xu",
    "123": "dao",
    "124": "san",
    "125": "wan",
    "126": "bei",
    "127": "neng",
    "128": "xiang",
    "129": "duo",
    "130": "yuan",
    "131": "tai",
    "132": "dong",
    "133": "xiao",
    "134": "she",
    "135": "hou",
    "136": "yu",
    "137": "shang",
    "138": "liu",
    "139": "fang",
    "140": "mian",
    "141": "ming",
    "142": "que",
    "143": "qiu",
    "144": "qing",
    "145": "huai",
    "146": "si",
    "147": "guang",
    "148": "lv",
    "149": "ze",
    "150": "xian",
    "151": "kong",
    "152": "ran",
    "153": "qu",
    "154": "tiao",
    "155": "ben",
    "156": "la",
    "157": "ou",
    "158": "meng",
    "159": "jing",
    "160": "shou",
    "161": "hui",
    "162": "zeng",
    "163": "gen",
    "164": "wu",
    "165": "mai",
    "166": "guan",
    "167": "che",
    "168": "zhua",
    "169": "qie",
    "170": "feng",
    "171": "xun",
    "172": "nan",
    "173": "du",
    "174": "kuo",
    "175": "sun",
    "176": "huang",
    "177": "xing",
    "178": "lie",
    "179": "jun",
    "180": "han",
    "181": "tao",
    "182": "bai",
    "183": "tu",
    "184": "ding",
    "185": "yin",
    "186": "su",
    "187": "wai",
    "188": "gui",
    "189": "mo",
    "190": "reng",
    "191": "fei",
    "192": "lve",
    "193": "ling",
    "194": "biao",
    "195": "ru",
    "196": "ni",
    "197": "qian",
    "198": "gu",
    "199": "suo",
    "200": "jiu",
    "201": "xiu",
    "202": "qiong",
    "203": "shui",
    "204": "ya",
    "205": "zha",
    "206": "tie",
    "207": "mu",
    "208": "zun",
    "209": "cun",
    "210": "te",
    "211": "se",
    "212": "nong",
    "213": "rong",
    "214": "rang",
    "215": "chou",
    "216": "bi",
    "217": "geng",
    "218": "yong",
    "219": "lao",
    "220": "dou",
    "221": "po",
    "222": "lang",
    "223": "hang",
    "224": "dan",
    "225": "sui",
    "226": "shuo",
    "227": "can",
    "228": "tuan",
    "229": "zui",
    "230": "kang",
    "231": "ce",
    "232": "kai",
    "233": "zao",
    "234": "chao",
    "235": "kuai",
    "236": "zhuan",
    "237": "ying",
    "238": "gai",
    "239": "huan",
    "240": "tui",
    "241": "niu",
    "242": "wa",
    "243": "ta",
    "244": "qun",
    "245": "lian",
    "246": "chong",
    "247": "song",
    "248": "lu",
    "249": "chen",
    "250": "na",
    "251": "kui",
    "252": "lan",
    "253": "bie",
    "254": "cha",
    "255": "ban",
    "256": "gang",
    "257": "pai",
    "258": "xuan",
    "259": "mi",
    "260": "ai",
    "261": "tuo",
    "262": "nei",
    "263": "qia",
    "264": "nao",
    "265": "chan",
    "266": "cu",
    "267": "tian",
    "268": "xiong",
    "269": "duan",
    "270": "cui",
    "271": "cai",
    "272": "zhun",
    "273": "cao",
    "274": "pi",
    "275": "cuo",
    "276": "zuan",
    "277": "mao",
    "278": "dun",
    "279": "rou",
    "280": "piao",
    "281": "tang",
    "282": "pin",
    "283": "kun",
    "284": "pu",
    "285": "shun",
    "286": "nv",
    "287": "ceng",
    "288": "zang",
    "289": "gua",
    "290": "pang",
    "291": "lin",
    "292": "pao",
    "293": "pen",
    "294": "ga",
    "295": "chai",
    "296": "zhao",
    "297": "yun",
    "298": "pei",
    "299": "liao",
    "300": "shuai",
    "301": "zou",
    "302": "chun",
    "303": "gei",
    "304": "hen",
    "305": "luan",
    "306": "nu",
    "307": "rao",
    "308": "ma",
    "309": "sha",
    "310": "me",
    "311": "sang",
    "312": "weng",
    "313": "kao",
    "314": "ting",
    "315": "bang",
    "316": "keng",
    "317": "nuo",
    "318": "ning",
    "319": "lia",
    "320": "fou",
    "321": "za",
    "322": "mie",
    "323": "zhuang",
    "324": "cang",
    "325": "kuang",
    "326": "juan",
    "327": "kuan",
    "328": "mou",
    "329": "heng",
    "330": "e",
    "331": "nuan",
    "332": "zhui",
    "333": "zei",
    "334": "pa",
    "335": "en",
    "336": "ao",
    "337": "pian",
    "338": "mang",
    "339": "sai",
    "340": "re",
    "341": "bin",
    "342": "long",
    "343": "ang",
    "344": "tun",
    "345": "ka",
    "346": "qiao",
    "347": "lou",
    "348": "shua",
    "349": "hun",
    "350": "zen",
    "351": "nie",
    "352": "shuang",
    "353": "kua",
    "354": "teng",
    "355": "zan",
    "356": "a",
    "357": "zhai",
    "358": "sen",
    "359": "ku",
    "360": "zhuo",
    "361": "ruo",
    "362": "hei",
    "363": "shai",
    "364": "sao",
    "365": "die",
    "366": "ruan",
    "367": "gun",
    "368": "ha",
    "369": "nai",
    "370": "beng",
    "371": "leng",
    "372": "sa",
    "373": "ca",
    "374": "niao",
    "375": "chui",
    "376": "guai",
    "377": "pou",
    "378": "niang",
    "379": "cou",
    "380": "rui",
    "381": "sou",
    "382": "run",
    "383": "chuo",
    "384": "nve",
    "385": "ken",
    "386": "seng",
    "387": "nin",
    "388": "cuan",
    "389": "miu",
    "390": "chuai",
    "391": "nang",
    "392": "diu",
    "393": "ne",
    "394": "shuan",
    "395": "nen",
    "396": "pie",
    "397": "cen",
    "398": "zhuai",
    "399": "yo",
    "400": "n",
    "401": "o",
    "402": "ei"
  }
}